[PAD]
[UNK]
[START]
[END]
!
,
-
.
:
;
?
a
b
c
d
e
f
g
h
i
j
k
l
m
n
o
p
q
r
s
t
u
v
w
x
y
z
а
б
в
г
д
е
ж
з
и
к
л
м
н
о
п
р
с
т
у
ф
х
ц
ч
ш
щ
ъ
ы
ь
э
ю
я
не
что
это
на
то
все
как
если
но
так
да
##е
нет
##и
по
только
есть
##а
ты
от
меня
или
можно
##ся
##м
для
мне
когда
ну
еще
за
будет
он
же
просто
уже
бы
вот
##у
они
может
надо
очень
лучше
чем
его
##ы
вы
из
##ом
там
всегда
быть
##т
потому
их
она
тоже
без
##х
себя
даже
##ов
кто
конечно
люблю
больше
чтобы
вообще
мы
##ю
ее
##ми
тебя
ничего
себе
нужно
любовь
##сь
##я
тебе
потом
ни
##ки
до
много
было
тогда
хорошо
##о
вас
время
жизни
вам
со
##ка
нас
значит
человек
пока
при
жизнь
где
иногда
сеичас
##ные
во
##те
##го
всего
чего
##ныи
всех
##л
##к
раз
думаю
свои
главное
##н
того
них
##но
этого
люди
##ь
##на
тут
могу
этом
бывает
знаю
тем
нравится
сам
после
##ку
женщины
человека
делать
мужчины
почему
##с
##ли
ли
##р
##ная
кого
им
про
более
людеи
##ны
##сти
##сть
##в
##ои
какои
мои
женщина
сама
которые
мужчина
под
него
##ть
такое
будут
был
такои
любви
зачем
##ет
##ных
ему
##нои
##ла
том
хочу
поэтому
отношения
всем
никогда
зависит
жить
хотя
##ным
например
через
##ить
сколько
буду
хоть
либо
ведь
могут
сразу
один
лет
точно
никак
обычно
##ке
##ную
именно
день
уж
##ем
стоит
такие
##ать
оно
свою
скорее
##ит
кому
чтоб
возможно
деньги
была
каждыи
смотря
сделать
еи
счастье
нибудь
нее
##кои
пусть
особенно
любить
куда
те
неи
своеи
секс
##не
##ят
##ное
хочется
часто
нельзя
дело
наверное
равно
##ешь
какие
тот
##ами
сами
этот
друг
привет
свое
##шь
наити
##та
такая
собои
нормально
совсем
##ты
##д
никто
которыи
других
разные
##ра
лишь
женщин
были
мало
##нее
плохо
мир
##ок
##му
сказать
чаще
##ия
самое
ним
дома
кем
##ного
##ии
правда
случае
обязательно
##ние
об
сначала
мужчин
теперь
достаточно
бог
нам
какая
давно
своих
бога
любои
##ни
стараюсь
детеи
##вать
кажется
кроме
##ая
россии
будешь
хочешь
вроде
##еи
вместе
другои
##ах
##тся
##ам
девушка
другие
спать
че
вопрос
##з
##ство
ага
##ют
любят
меньше
моя
получается
##ик
##ция
##ен
нужен
таких
##г
сегодня
##ции
стать
##нии
правильно
времени
##п
спасибо
##ник
##да
##ль
этим
эти
одна
другое
##ва
хочет
##чки
почти
своего
##ите
##ко
##ры
раньше
##ну
интересно
всю
туда
хорошии
##ния
наоборот
девушки
должен
денег
любит
говорят
##ую
перед
желание
сильно
##ло
##ал
тех
та
долго
##ля
даваи
##ики
такого
умею
##неи
помогает
боюсь
этои
нужна
##ш
отношении
быстро
##ые
твои
думать
купить
##ил
нравятся
муж
можешь
которая
рядом
говорить
##ность
##чка
иметь
слишком
нужны
приятно
##ыи
каждого
здесь
бывают
##чку
##ков
два
дети
##б
##то
##ца
дальше
немного
самыи
верю
редко
работать
иначе
смотреть
##ду
хотят
легко
разве
##ие
##ию
ои
##ж
делаю
##скии
##ц
год
##ства
чувства
многие
##ком
##щие
хватает
остальное
таки
некоторые
##им
##цы
##цию
знаешь
человеком
проще
хуже
начала
тому
одно
своим
##ту
имеет
проблемы
новыи
##ых
##ру
##ика
друга
##вы
##ными
идет
##есь
получится
между
также
души
скоро
кстати
типа
придется
##ишь
смотрю
настроение
##ч
##ое
##ение
общаться
##ном
откуда
шо
вполне
понять
##щии
знает
знать
работу
хорошее
слова
года
лично
пить
женщине
этому
чувство
основном
людям
душа
мое
##щих
руки
место
##ле
угодно
тобои
##ня
мужа
##са
##га
легче
постоянно
##шка
##бы
верить
работа
проблем
секса
ждать
##ым
самои
над
##жу
мире
однои
должны
чуть
считаю
##или
другим
любом
##ники
##он
против
зато
##ер
эту
кофе
слушать
важно
##вает
дела
должна
самом
другого
весь
помню
эта
тока
мнои
чаи
##де
женщину
##нь
музыку
опять
станет
нем
##ти
ними
##нуть
##ские
везде
ладно
таким
людьми
##ин
##сы
будете
##ности
##ого
деле
идти
##ф
человеку
работе
жена
пару
##ила
##ще
завтра
которои
мужчину
трудно
##нно
какое
делают
##шки
хорошие
говорю
##ды
понимаю
момент
будем
вера
которых
должно
глаза
##ги
##ось
##скои
душе
искать
несколько
##али
мужчине
##чу
отношениях
деиствительно
вами
##вал
##ками
##чныи
##аю
наверно
##чи
##ировать
эмоции
парень
##ре
внимание
ко
пью
одного
##ха
##лы
осталось
столько
стороны
##ву
становится
работы
##ши
невозможно
причем
##ятся
##вая
##нет
существует
прям
вся
##ел
сложно
##ше
желания
##чные
##ает
сижу
счастья
слов
никому
##жи
вещи
работает
сон
##ст
##лю
##ма
##чно
##кие
слово
делает
чему
хорошая
отношусь
блин
##ская
начать
сердце
удовольствие
вдруг
говорит
любишь
##нныи
общение
##вали
энергии
список
##щая
##ять
##аи
##ься
жду
заниматься
опыт
##нные
три
отлично
моему
##чить
##ром
никаких
целыи
ради
сказал
самые
##ель
далеко
друзеи
можете
хожу
живу
чо
дает
##овать
понятно
сожалению
выбор
само
взять
мнение
красиво
##льно
слушаю
дать
ребенка
##кии
##же
нету
хотите
##ди
##юсь
##щеи
вижу
ваш
вопроса
##ина
##ваю
обожаю
норм
ситуации
самая
##леи
##ор
нечего
ходить
фото
##ровать
хорошего
##ша
##кая
новые
реально
##ться
##ала
жаль
приходится
называется
посмотреть
семья
##стеи
пор
ибо
отсутствие
##чик
играть
##ения
##ников
моеи
своими
одни
щас
поможет
замуж
##ню
##иться
сша
разному
сильнее
менять
##ках
выше
##мы
##шить
многое
##ится
своему
практически
честно
возможность
предпочитаю
ума
##за
##ских
нажать
первыи
понял
##ости
кнопку
проблема
гораздо
##ба
мужчинои
##ан
надеюсь
друзья
радость
видимо
правило
другом
женщинои
##гу
вряд
имя
мысли
больно
##аться
умение
##шку
##ели
##нное
изменить
работаю
##вои
##нная
знаком
##ись
живут
сила
##ут
боль
##ри
большои
##ваешь
учиться
иди
месте
##чная
доброе
любимои
##ают
##ски
##шу
естественно
общения
боятся
цвет
никого
##ваи
##еть
интернет
является
получить
##жения
читать
мира
ночь
##чать
прекрасно
часть
богу
власть
две
каких
самому
добро
##нка
здоровье
##гать
скучно
хватит
состояние
знают
##ров
разных
брать
тои
этих
##ница
временем
уметь
##бить
ноги
любовью
вариант
тело
смысл
самого
намного
попробуи
##овые
##вают
быстрее
видно
игры
##тки
другу
дня
пол
видеть
мозги
##че
брак
научиться
скажу
ничем
вокруг
девушку
команд
##ью
второи
некоторых
сплю
семьи
##лся
ваши
узнать
##чек
##ику
пароль
смысле
##кое
##s
будущее
силы
принципе
мере
смерти
##ость
рано
##нки
всему
поздно
страшно
спокоино
которую
дом
другому
россия
##e
внимания
утро
вид
наши
##си
ответ
поиду
подарок
##овои
права
остается
##ывать
увы
##щего
снова
мозг
##ского
какую
##жает
удобно
##вала
##лась
многих
##том
хотелось
##вание
лучшии
##чение
##вые
##нить
любая
полностью
дружба
удачи
музыка
красота
##ким
видел
женщинам
цветы
любое
##ела
которого
красивые
отношение
любимым
##щим
##ины
##изм
##вания
##рь
помощью
особо
##нем
вопросы
вчера
голову
##ание
происходит
девушек
чтото
проидет
##ток
утра
какого
абсолютно
эт
##льныи
вкусно
##чных
характер
неделю
подарки
думаешь
любимого
тела
желательно
приходит
факт
моих
порои
своем
прежде
##ника
близких
страх
##лись
##жение
девушке
однозначно
##рую
мужчинам
##тно
возможности
прямо
##нут
##нию
скажи
##ча
##ется
взгляд
занимаюсь
попробовать
бояться
мама
одну
ребенок
##ее
##ении
мясо
комп
власти
счет
##шения
сексом
##се
большинство
##ска
##чным
создать
##ское
которым
места
тяжело
месяц
такую
которое
совершенно
становятся
##тка
поити
придет
дают
##чит
ем
процесс
каком
никакои
ночи
путин
книги
семье
сидеть
серьезно
##ания
язык
поговорить
цель
никуда
пиво
жалко
##стве
проходит
жены
общем
мешает
ток
##нных
##скую
##жении
пора
##тов
##вается
##чкои
##тесь
##ления
каким
##альные
своя
сих
##бе
##хи
##ких
любые
##рать
неплохо
нему
однако
способ
любимыи
волосы
народ
##па
##овая
ваще
хотел
иду
##щее
очередь
домои
оба
читаю
##ец
большая
ночью
семью
##стью
новое
родителеи
религия
хотела
##жать
парня
среди
##ству
света
##ском
сил
##зы
##щать
##ье
наше
вредно
право
дарить
голове
помочь
твое
конец
фильм
игра
##ьные
добрыи
##чет
каждому
полезно
друзьями
чувствовать
навсегда
хз
##ике
двух
образ
телефон
чат
##нным
виде
живет
религии
ум
##ваться
цели
##дать
##тои
забыть
другими
##жки
##ельно
получать
всеми
менее
##во
##зм
зло
родители
умные
##чь
свобода
поняла
попробуите
##ера
страсть
сторону
новую
##бу
совесть
##льные
советую
умеют
вкус
вашеи
запах
рыбалка
авто
видела
##дка
##рить
готовить
утром
интернете
##жно
остальные
##чную
побольше
моего
##чен
##ро
имеют
##од
внутри
писать
возрасте
душу
##жить
любого
##шение
##чает
##рал
##аешь
##лить
##ев
##ися
##циеи
девушкои
назад
ваша
смерть
страны
##нного
##пать
свет
##ве
возраст
давать
##дь
##ницу
##цев
лучшее
вести
русскии
болит
будь
считают
вечно
доверие
твоя
довольно
согласен
##лен
пола
ответах
году
##ешься
##кую
необходимо
вашего
вместо
##ннои
принимать
##еры
##ья
заняться
##итесь
настроики
первую
##чке
##ваем
##шеи
##сты
каждои
##овых
красивая
путь
думают
##кого
ближе
принять
##выи
никакого
поменять
конца
##ились
##ась
##пить
удалить
понятие
силу
чувствую
останется
##очку
паспорт
понимание
минимум
результат
согласна
летом
случаи
меняется
##енно
готов
смысла
знаете
разум
рождения
##жа
##жные
болезнь
##очки
##шие
##шии
странно
понимать
##лом
говорил
##емся
##лые
##она
##альныи
##ываю
насколько
первое
сказала
##ину
##ницы
##нку
земле
готовлю
сидит
сходить
##чески
##вести
##вить
##шься
##ент
##тор
##жку
уважение
##э
вперед
круто
верят
хорошим
плане
кино
##овыи
одиночество
##нешь
море
знания
стало
показать
затем
##чнои
стал
##шать
солнце
нового
##жка
другая
пожалуиста
##яет
##ются
память
##ждение
понимают
всякие
ссср
богом
покупать
нашеи
интерес
любую
сложнее
##t
причины
рок
##рии
решение
голова
ту
##чеи
##зу
разница
другую
использовать
##ат
##нул
##ление
выити
##ждения
одним
фильмы
таком
считать
##ним
думал
цвета
беру
##ческии
видео
наш
мечты
чувств
##ьная
##очка
##пы
купи
ими
желании
пользуюсь
##щает
поидет
спорт
##реи
даи
числе
##енныи
##жит
лицо
пытаюсь
##пу
##лять
играю
нравиться
##лки
такими
удовольствием
##от
стране
##нг
доброго
##ческие
##шая
##нскии
блять
начинается
##ску
##пе
добавить
начинает
##ьныи
##ист
опыта
курить
мужики
полно
дорого
влияет
##щу
одном
руках
мужем
называют
наша
##чивать
##ек
плюс
##кать
тепло
##чат
##нять
пути
подумать
руками
бесплатно
нормальные
причина
##d
мужик
##них
моем
рф
терпеть
имею
##бои
город
будущем
мать
самим
бери
час
зовут
##жет
пользоваться
ваше
зря
ревность
##енные
##жают
интересы
##ским
##a
хуи
боли
устраивает
##чем
##чения
волос
недавно
расскажи
будто
идут
плохое
кушать
##ете
##рали
жену
держать
положительно
прав
помощь
бороться
вечер
##лыи
завести
машина
##оды
покупаю
думала
радости
воды
праздник
следует
вещь
уити
нормальныи
прошлое
днем
раза
хороших
воина
##нят
носить
##ыми
##дает
образом
уши
##нение
черныи
русские
##рки
выбирать
голос
большие
тему
##чая
начинаю
смотри
##ческая
виду
здоровья
##ях
##ста
всеи
##ился
саит
##рит
стала
##цу
мою
разу
лечить
глаз
##бку
##дить
##чок
поводу
песни
##руют
выпить
##ывает
любимая
старыи
веры
##вато
##шает
улице
##бки
любим
закон
умныи
##лов
вовсе
сможет
##ложить
##стить
внешность
##ск
работают
##дают
##нении
воду
умеет
счастливым
количество
##рт
##жат
звучит
лень
далее
##кам
##ших
сердца
неа
бизнес
ищу
зрения
детства
##рует
похоже
считает
##лем
увидеть
мудрость
зимои
целом
потерять
##вные
##ическии
смогу
чисто
весело
данныи
##иду
примерно
сны
##су
речь
важнее
еду
мечта
нахуи
##шкои
организм
поведение
ща
назвать
сделал
##жаю
вечером
ситуацию
##дет
любите
плохого
##чики
##чное
короче
повод
##шаю
грех
женои
##рия
зависимости
##ником
##дои
ношу
##ус
настоящая
хорошеи
чате
##нести
##ьно
характера
перестать
понимает
##ствует
спортом
учить
##еля
порядке
##нения
жизнью
верно
##ствовать
ждет
машину
путина
##ге
##тать
городе
природе
стали
первого
##ические
##яться
##лым
природа
снять
##ывают
##лои
##шке
решать
##рно
головои
браке
думает
##кт
##рои
человеке
##пал
##лу
##шек
##рныи
выбрать
жрать
книга
правду
##зать
влюбленность
меру
поскольку
руку
одному
новых
##нит
днеи
##нт
посмотри
нить
красивыи
сне
##ица
##ании
воли
##рет
магазине
поставить
##оны
душои
настолько
гости
##вки
##хожу
тож
##ар
##щую
парни
вне
относится
платить
##ща
приветик
##ческое
воины
грудь
дух
##дят
##тить
радоваться
разговаривать
мужу
старше
степени
сути
##нов
детстве
##пала
твоеи
собираюсь
член
краинеи
написать
##даю
##ицы
наших
начинают
образование
##тель
строить
понравится
##ви
##их
хобби
вовремя
крови
##сов
##шно
партнера
возраста
супер
##до
всяких
##ишься
разговор
##би
##щение
вода
качества
примеру
мозга
##иком
россию
врачу
отдых
природы
настроения
уверенность
##тныи
слава
##льная
самым
##ме
позже
рада
пишу
считается
хотеть
хм
ответственность
подарить
качество
##лок
##ному
##нцы
готова
жениться
понимаешь
##n
##шее
душ
тдв
##ально
последнее
##тики
старости
##ствия
##тные
конце
##жусь
водку
тема
##альная
умнее
носки
гулять
##имся
##нность
молоко
##лка
##люсь
причин
доброи
петь
##чаи
детям
##сия
сиськи
настоящии
##фа
надежда
познакомиться
делом
связи
точнее
говоря
##жается
##нюю
одинаково
личности
пример
давление
вино
средство
темы
бля
раи
##дел
##чении
##дим
карты
нервы
##лении
##ует
котором
##ота
шанс
##y
##ирует
библии
##жныи
программа
окружающих
старые
ненавижу
подруга
сексе
страна
даст
делаи
находится
##илась
##овую
полюбить
##дом
первои
ок
народа
украине
##дал
##ора
вечера
выход
зеленыи
уверен
##няя
##нную
мечтаю
##гает
##чество
кровь
общество
реальность
алкоголь
##ог
##яют
касается
##тная
##лая
ждут
часа
##рала
##тик
чужие
##дки
##ваите
##ями
делаешь
личность
известно
##иков
разницы
повезло
второе
общаюсь
ящик
лс
##очек
спросить
начинать
##ческои
эх
##шают
обо
сети
выглядит
зубы
дороже
уходит
деньгами
уважать
яица
деиствия
##реть
доме
изначально
растет
наука
верность
любому
итоге
части
##ман
магазин
хрен
##лых
исключительно
врач
отвечаю
##чие
телевизор
уровень
##оз
начало
##ации
##вых
##вет
##ически
##уют
сменить
##енная
##лии
##ляет
##шит
учусь
государство
##ается
видишь
минут
бегать
впереди
насчет
##чного
болезни
отвечать
##сом
лица
##альных
номер
слабость
##ставлять
хорошую
дольше
состоянии
футбол
##щи
##дут
##мся
##вныи
рот
приятное
говори
помогают
##пка
первая
##ельныи
компании
видит
жене
настоящему
##аны
рода
каиф
##плю
ездить
личное
судьба
ввиду
обычныи
настоящее
готовы
ясно
##жешь
##нимает
сюда
##вка
##елеи
##пит
##кими
##ствие
появится
программы
означает
приятного
растут
берут
евреи
##вно
желаю
##зе
тратить
церковь
##ельные
слышать
##енность
жи
период
плохои
прикольно
дружить
кормить
правила
первых
##вная
##мо
размер
каждом
признак
##ался
книгу
нигде
организма
красивых
радио
видят
здорово
помощи
сделаю
##жная
водои
красивои
##ран
##яю
сто
##рения
##стные
сможешь
##ху
##щении
дешевле
##кс
##ход
##шные
лучшая
мечтать
свете
##ическое
занятие
интереснее
судя
##рка
выходит
ответить
саите
замечательно
мужчинами
##фон
последнии
##чаю
##чком
вес
##еш
оружие
оч
ваших
захочет
новои
путем
##гают
##рок
##стика
##еет
##пки
знакомства
счастливои
даваите
причину
##лия
вероятно
доверять
играет
шоколад
##уи
выглядеть
ох
нами
красоты
тв
##аите
##ляю
##ип
##шли
рост
сын
##елем
##ине
времена
встречи
месяца
подходит
##сии
остаться
рад
куча
мог
новая
взаимно
теми
##ивать
написано
лучшие
##дные
брака
заити
лето
первым
##цем
города
прошлом
решения
##овое
привычка
##яется
брат
##ств
большое
песня
##сать
сильныи
##ово
##ря
##нице
женщинами
воздух
относительно
##жных
каждая
##чим
можем
труд
##инки
##ило
ставить
##тку
данные
##енных
начни
развития
выбора
украины
умеешь
многим
опасно
заработать
точки
уровне
ведет
влюбиться
штука
##рное
конкретно
боится
животных
школе
компьютер
сделаи
система
##жен
будьте
регулярно
ха
часов
##рами
##ового
относиться
уважаю
##чаешь
поспать
##лось
##водят
##стов
детьми
дурак
обоих
##зия
##стает
##ствуют
водка
ехать
##бо
миром
##ол
позволяет
явно
##вное
##ическая
гармония
говоришь
трусы
##ирую
##ода
отношению
##це
девочка
живем
обратно
работаете
##нности
воспитание
причине
##сит
получаете
реале
##ьных
маленькии
пофиг
##дно
эгоизм
##зи
##нием
свидание
##нок
планы
попросить
ремонт
##ана
##сно
стану
онлаин
оставить
машины
москве
придумали
написал
порядок
случаях
##нал
##уры
##лин
наличие
показывать
дни
молодои
##шим
##тия
станут
##гаю
ищут
учитесь
комфортно
сильные
умом
##щ
##стями
дел
крючке
тд
убить
бросить
дык
питание
##тельныи
ситуация
соответственно
##ствии
физически
##род
полнои
##вом
##енное
##нкои
##тели
наконец
рассказать
##лать
маленькие
сном
болеть
словами
ощущение
знакомых
курю
остальных
фиг
##дныи
##водит
отдыхать
первом
##дали
заставить
уверена
##ив
годами
законы
меняются
русских
удобнее
##ером
##исты
любимую
##стныи
дано
мышцы
головы
стиль
одновременно
##тые
умным
масло
##стно
продукты
тянет
##пои
годы
##уру
ответы
##лет
которыми
##ис
водки
##ично
##овым
чет
##ум
зла
отрицательно
##ивно
##тва
ничто
продолжать
##аем
##бирать
##ова
##ьным
еда
некогда
роль
снимать
сына
скачать
белыи
##вод
##пи
##рные
отдельно
спокоинои
отец
##чень
хлеб
##ходят
##бка
весьма
сделает
существуют
возникает
моим
глупо
маленькая
##няю
армии
перемены
украина
любимых
поговорим
пожалуи
получилось
приятнее
управлять
пять
понятия
снов
ошибки
общества
послушать
##зить
##ька
помогать
тупо
зависть
##ненько
заранее
открыть
сохранить
##альным
##рут
##водить
##дит
дорогои
##льное
название
первые
##ственныи
искренне
настроиках
станешь
верит
постепенно
##ствую
девушкам
кое
способность
ненависть
пробовал
удовольствия
##чал
##чками
добрые
почитать
телефона
любимые
##вных
##чают
##шныи
история
массаж
нос
страшного
##зал
наверняка
##дается
##лку
##ственно
зарабатывать
разумеется
салат
##теи
миру
разное
##рает
нафиг
измена
независимо
тихо
##аюсь
близкие
решить
дадут
периодически
##ос
мозгов
общении
погода
требует
##чивость
дам
##рам
ищет
необходимости
памяти
сознание
##зь
##няться
некоторым
папа
делами
сказки
случилось
ходят
##оры
##рю
информацию
курсе
знал
приносит
вопросов
никакие
начну
##чии
изза
##няют
красоту
##цца
ценить
##дешь
отпуск
развитие
таблетки
смотрят
##ждать
##лик
интересное
наидется
небо
полныи
##гда
пошел
самых
начнет
счастлив
стремиться
мысль
недостатки
реальности
##сию
глазами
общие
пиши
##ждают
начнут
срок
##бор
##ните
аж
информации
ровно
морально
##ак
##живать
##ственные
парнем
##уя
обществе
талант
геи
безусловно
##цами
вашем
радует
##вления
##живает
вашу
проити
##тыи
зависимость
##того
подоидет
собак
сомневаюсь
##иеи
ктото
мамы
мужиков
называть
собака
встречаться
продать
##ары
##вался
классно
недели
попасть
замужем
суп
##инка
выидет
рожать
счастью
##вались
добра
цены
##тика
##ени
вещеи
мед
условии
холодно
##рная
##ставляет
##стои
##цом
##гаться
##вании
##щем
##ске
вызывает
духа
играют
ложь
##вит
##лина
##нял
##дов
ниже
способности
максимум
мыслеи
около
страха
говорили
наидешь
тя
##зки
##ляи
##шивать
глазах
зачастую
интернета
##новить
вернуть
дождь
##рах
обратиться
энергия
##уть
наидет
бабы
определить
отдохнуть
##пустить
##шего
воспоминания
моменты
понравилось
церкви
новости
родных
искренность
сверху
##ены
##ряд
знании
ею
забыл
знала
истина
пошла
пошли
фигня
ужин
##еннои
##идут
помогут
решил
##вку
скажите
##чего
пользу
следующии
кредит
##ид
##ческих
##ян
бить
возрастом
любых
ах
впрочем
историю
контакт
кошки
оставаться
плохие
##оты
##рее
##нула
парнеи
маслом
появляется
##ому
выходить
краине
матери
##ация
##идет
продают
разными
суд
поддерживать
##деть
выводы
грустно
диск
стараться
увлекаетесь
интеллект
##мент
вариантов
очки
совести
##нцев
##еты
##зная
##овал
пиздец
слышала
##петь
##щими
внешности
красивое
личнои
##дя
ощущения
борщ
бред
интересует
както
##ехал
доверяю
специально
умных
ценности
##ехать
##ничать
##чна
выбирают
проверить
##вую
##дала
##теля
уходят
##жаи
интересные
скорость
##дку
квартиру
коньяк
##нты
забудь
знание
получаю
##лер
##шат
адрес
##жным
имени
земля
подряд
##ою
девочки
машине
##вое
##ех
##ностеи
нежность
старость
##оть
достоинства
смотрела
##ям
единственныи
занимаешься
практика
слышал
##жное
##нке
вина
разная
##етки
##нули
говорится
процессе
твоего
##ливо
##сываю
##тая
заново
позволить
##решь
##шнее
выходные
##ьте
верующие
людях
развивать
##жем
запросто
лечится
нашего
обидно
остались
##енты
живешь
свадьбы
тип
##лит
китаи
##жим
##оне
благо
инете
##вер
##има
##чил
##тке
лучшему
нежно
хорошему
др
музыки
вон
газ
смешно
##рик
##чо
дочь
чужои
##алась
поведения
простои
стоят
топ
##альную
##сные
пара
##няк
являются
##льных
возможностеи
средства
##бери
##вым
христа
значения
скажет
двоих
везет
ооо
слушаи
##гии
##жал
##ушка
качестве
обычные
пришел
шаг
##жил
делается
форме
##чиком
##дия
##нские
стремление
##ета
холодильник
##анные
медленно
красныи
часы
##ивныи
##рался
знаем
случаино
фрукты
##щик
сможете
##нными
##няет
обед
свободы
умная
долг
спокоиствие
##живания
##ляют
врать
диване
##еки
##ушки
ад
врача
знакомство
относятся
отца
прожить
добиться
оттуда
пары
##нутся
белые
ниче
нормальная
##пил
жалеть
жопу
круче
помнить
порно
пробовала
##усь
сидят
##икои
##рение
##чными
идеи
чувствуешь
##литься
жарко
интересныи
подальше
##ена
витамины
смотрел
##держать
##рыв
##сить
взаимопонимание
магазинах
норма
##вожу
важен
веру
еды
знакомств
##пись
##щения
движение
наслаждаться
форма
##чению
встреча
здоровыи
ого
##ваются
##носить
условия
##ических
##ниц
заменить
молча
мужскои
план
сказали
инои
##чилась
##чился
кот
повезет
случается
хорошем
##жеи
##ивные
##ял
квартире
научить
привычки
##аа
##гнуть
##риться
##ура
##ческого
счастливы
##яи
парню
сделали
банк
вторая
##ед
##живают
врагов
однажды
полное
страну
##еды
знакомиться
показывает
##шен
##шла
взрослые
кошка
поимали
сок
стол
##жишь
##стать
терпение
##лог
##пления
похож
типо
##кают
подруги
##o
##ством
##шается
реже
стыдно
истории
молодец
области
словом
##тично
бесполезно
множество
детство
страсти
##жнее
##уешь
мимо
толку
проблему
##аются
##кость
##тв
##ъем
##чика
системы
убрать
аниме
##тер
##стал
молодости
даю
поступки
создавать
умереть
##еку
избавиться
кота
начал
нашел
отличается
бот
##крываю
нормальных
уидет
##нется
приходят
разговариваю
##шнии
президент
##дная
##пок
##стают
инстинкт
сильная
хотели
##l
##жите
доброта
изменится
полная
белье
говорила
девушками
контролировать
##тных
аптеке
закончится
отдавать
пытаются
##тельно
вселеннои
мужика
##шние
большинстве
объяснить
пожаловать
приятные
сладкое
##нулась
##рем
##рики
##жность
##ируют
враг
государства
платят
##екс
##рен
##рнои
##это
заканчивается
##еди
##яя
пишут
##падет
животные
##ваюсь
##днее
##жнои
##чили
вышла
проверено
связь
масса
##ельная
отдать
шучу
##ур
##хнет
остаются
##паю
которому
огонь
ребенком
кровати
некуда
##нимать
##рая
временно
вспоминать
принимаю
чата
##ено
группы
документы
могла
включаю
надолго
сахар
способен
##жаться
##живаю
##шем
ужасно
##ическои
##нном
##ываться
будущего
трех
##льную
##ясь
##ались
вспомнить
отличныи
пьют
##ственная
##фы
##ьи
простить
##дывать
создал
делали
сна
терять
##лена
здравствуите
политика
##ляться
##ьны
земли
одежда
##нство
##хаха
##шал
кожи
настоящие
рождаются
сердцем
собаки
##били
бро
нашла
рукои
##кции
##льнои
##мои
##тельные
го
деиствовать
хотим
##ними
##нусь
вернуться
говорите
##кнуть
##ктив
##нике
##рг
##чнее
индивидуально
##дание
##рку
##ственным
##зация
##лению
##тность
плохая
усталость
##жали
самих
сдать
чувствует
##вок
##даешь
##нику
##чала
компа
личку
##ельное
делал
пива
похожи
##читься
##чность
лечит
сделала
смотрит
##ад
##нибудь
##щить
выборы
здравствуи
модно
##валась
##жную
дороги
лечь
состояния
эффект
##нах
##шним
каждую
солнышко
##стным
логин
нах
скажешь
угу
##идешь
##ленные
##ражение
##яешь
заводить
случаев
##p
##резать
главныи
месяцев
молодые
разныи
##цов
стихи
##чены
игру
кризис
пенсии
чужих
##езд
##зывали
##порт
ног
управления
##есть
##ьет
бывало
мыть
##жды
кровать
##уется
ветер
нашем
##вого
воспитания
кожа
необходимость
##нк
##пая
##шками
ждем
идея
мнения
наиду
немножко
сыр
успеваю
любила
встретить
добрых
интересов
пытается
##мен
стоять
кафе
осень
##ьную
неее
прощать
режим
##ею
дар
советы
##тах
занимаются
лежит
прочее
##писать
##рят
платье
предложить
##ента
##шних
библия
гармонии
обидеть
изменения
разума
имеется
считаешь
##дем
стресс
##вную
берешь
любили
##вязать
##явления
забота
посмотрим
##ата
##лики
дорогая
личные
##беи
##держит
почту
самостоятельно
игрушки
любил
решает
вдвоем
цена
##зкии
летать
пешком
твою
воля
##нил
##ования
ушел
##ьют
гордость
када
ком
одиночестве
##дания
одиночества
##инои
радуюсь
скажем
##ваися
##шом
наступит
собственного
##полнить
##пускать
##риваю
ммм
похуи
работаешь
чудо
информация
##вшие
##пия
беда
маме
разобраться
целеи
##нами
##очныи
интересная
купил
последствия
реакция
заиди
курсы
##еров
##тками
##хать
##ывается
желудок
##влечение
##личия
##нна
##пление
##ставил
дак
новым
отсюда
родился
##зию
##мет
##ражения
##ьем
теплыи
##ачи
##дер
сериал
##бре
сахара
##ждает
##арь
##ставить
##ственнои
##шую
труднее
умирает
##иваю
продавать
##зныи
куплю
##руется
возьми
значение
ребенку
ужас
##ес
воздуха
ето
пускаи
важна
искусство
ошибок
трудом
##еешь
##овали
женская
##ленныи
##тя
окружающим
понимания
собственно
судьбу
##истов
##щают
близким
##тят
исключения
судьбы
сходи
##бные
##знание
дура
поесть
состоит
юмора
##ека
воспитывать
единственное
ногти
овощи
свободу
скореи
суть
##внои
##рое
благодарю
имеешь
любым
продается
твоих
фу
##дил
##овку
##стаю
спишь
##олог
твоем
теле
##еру
##шняя
мешают
поменьше
##аз
##деи
##чится
##чны
дорога
условиях
всякую
##зов
##очные
##сывать
##тит
завтрак
отдыхаю
ру
соседи
спит
установить
##имо
##кормить
счастлива
##вляться
##дании
##жили
##пят
ведут
требуется
##пасть
##стная
борьба
жили
##er
##ношу
##чена
нужным
серьезные
##ализм
выгодно
европе
иллюзии
##гия
##ити
##оду
способны
танцевать
большим
границы
потребности
профессия
##k
##знает
конфеты
спрашивать
школу
##аты
##ерныи
##рые
учат
##u
##нская
##ором
показывают
просить
##жала
могли
радостью
выбираю
добиваться
землю
неправильно
предмет
##азать
##дываю
##ище
##лую
##рных
##стях
забанил
купила
##знь
##стных
вирус
решила
##жаются
##рным
##там
##из
##об
##оров
третии
##ева
##евые
##зывать
включить
приготовить
##бит
##учить
песню
##рация
неприятно
оо
##бныи
спирт
частенько
честность
##тора
зеркало
рисовать
целоваться
##пали
ешь
милая
пришла
проявлять
развод
##жие
##ливать
##шная
лежу
##ентов
##ечка
##шении
внешне
делаем
имена
недостаток
неудобно
##ьное
каждым
покои
##ием
##чник
некому
упражнения
##чков
оргазм
##тями
##чивая
веснои
вред
зная
изменять
какими
классика
любимое
поверь
пресс
рассказывать
слабости
честь
##тирать
едят
##ея
##ивы
ааа
дорогие
мяса
отличие
раздражает
##дии
##него
качать
поднять
предательство
эго
##дера
влечение
снег
точку
уважения
##рат
атеисты
взаимная
охота
расти
рук
слышу
##ению
приити
##жкои
##рты
доказать
##пор
заходишь
нечто
одинаковые
покажи
##иальныи
##ящие
лекарство
положить
убивает
##крои
##пп
##уре
виноват
вкуснее
положение
прошу
близко
класс
любимому
шансов
забыла
иммунитет
крем
симпатия
скучать
успех
вашим
ногами
##арка
##ашки
##бых
##зии
всякое
забываю
слабые
странах
##оки
##оль
вызвать
интересен
розы
секрет
двигаться
##паться
##щаю
большую
книг
резко
##вол
##евать
##рым
##тво
##цам
забить
лежать
отношениям
пахнет
стран
##чишь
##ящии
модель
##ака
##женные
мыслями
оказывается
чувствами
##равились
##сная
всякии
евро
идеал
неважно
поле
страдаю
цветов
##ического
##разить
##ратить
##телеи
общии
прошлого
силои
##рного
##тами
##фии
##яются
звук
улыбаюсь
##ита
принимают
родиться
родственников
труда
##ас
##ливые
писал
победит
посмотрите
##пно
##ченные
саиты
статус
##жке
воевать
наступает
##гов
##лость
дал
занимается
источник
нации
обстоятельства
##бом
##знавать
прости
##имы
веришь
друзьям
##бил
##гаи
дружбы
золото
сутки
##кол
##чаем
##нулся
##рел
##ьнои
казаться
родить
##льным
##рана
##ьного
выбирает
телефону
##бов
опытом
##док
##ставит
##сят
интересного
сыром
шутка
##изма
##кладывать
##нец
##нс
##рос
груди
ищи
разговора
роли
систему
##рию
##ставляют
ахах
весна
деиствии
чувствуют
энергию
дышать
маму
настроению
поцелуи
стороне
##скать
##ьки
местах
молоком
просыпаюсь
утрам
##очить
одежды
##ими
##рин
потребность
провести
специальные
бывшии
враги
любовника
русского
##веди
##евыи
##ставать
##фия
игр
лечение
нормальное
пеи
программу
родителям
##крывать
##нам
##ностью
##ога
дверь
##оза
##ставляю
бежать
гдето
перемен
потихоньку
факту
##дке
##чали
выбираи
живои
кухне
самогон
##ано
##ивают
##стнои
##тным
метро
отправить
очевидно
совет
чувствах
##вным
##уки
иллюзия
использую
карту
узнаешь
##делить
##менты
##чается
сделают
##нского
тату
телом
##шел
интересны
молчать
##бится
кучу
придумать
##жут
##зировать
##лях
##няются
##чих
кошек
природои
##делять
##льного
##оя
##фф
##шнего
диван
правильное
##рались
##чаются
внуков
понравился
развиваться
хороши
##жности
##ственность
взял
длинные
дорогу
дружбу
постели
фантазии
##пом
театр
##нуться
##чиво
ответственности
хлеба
##вел
##скими
##щается
наличии
пытаться
судить
температура
##красить
благодаря
демократия
дураки
зарплата
какоито
##ваешься
##ницеи
##падает
вторую
народу
##валить
##овала
сердцу
собственнои
читала
##аша
##бами
##нится
##просто
двое
осознание
##одом
допустим
проводить
ахахах
губы
почаще
уровня
##тное
доступ
мальчик
привязанность
##дите
погулять
позвонить
фотки
##ицу
##чах
вернется
напиши
останутся
роста
##m
##щаи
##юм
исправить
осенью
прошло
##иста
##пает
##сны
внутреннии
возможна
##вление
##ждаться
##ипы
##шись
бан
врачи
свободное
##анность
##ждении
##рк
глупые
мнению
переити
рыбу
##лыми
аллергия
возьму
печень
##ковые
##хов
##чко
дается
##влять
##тура
итак
##платить
мудрости
привести
хрень
##аль
##ерная
##летки
количестве
красивее
родину
шансы
##гои
##рта
делала
предложение
##лично
##рыи
вашему
горе
зарплату
начале
основе
реальнои
рулем
территории
##влении
##реет
деиствует
круг
представляю
стакан
##правлять
данном
захотеть
старая
удар
##никами
##рд
##рон
дали
прекрасное
скрывать
терпения
явление
##ражать
женские
мамои
почте
##рскии
##тереть
медом
##арю
##даи
##довать
##ич
##раи
видели
ждешь
получишь
спят
##влекаюсь
##ительно
##лянуть
##тировать
ахаха
##каю
##менял
##сту
голоса
измены
картошку
нуждается
покушать
съесть
##ливыи
библию
желанию
носят
одежду
праздники
##енка
##чиков
беременности
вечность
дарят
женское
побыть
##тра
большинства
громко
##бок
##овы
воину
вывод
спец
##альна
##бивать
##ельным
##етку
##жаешь
##иди
##лировать
##ступать
##чивает
богатство
лучшую
москва
получиться
##тянуть
##шнеи
занятия
настоящего
спорить
##очке
##снои
##ческим
##чества
идеально
коем
надоело
##мены
извините
интуиция
мну
подобное
полгода
учителя
##енным
##ехали
возьмут
меняться
пережить
##бросить
##ехала
##тве
##ули
компом
повода
приятныи
обижаться
почитаи
слабыи
страдать
увидишь
##няется
##ращаются
##яли
надежду
ответа
пишет
школы
##ио
##питься
##стала
понимаете
психолог
уходить
##пкои
##ственную
##тику
услышать
##жек
##стит
знакомые
личныи
подруг
пользы
смотришь
сообщения
читал
##ере
##няли
##сами
добрым
принято
сигареты
##бираю
##гом
##кала
америке
заявление
звонить
мясом
саитах
##тельность
##ческую
вкусныи
квартиры
количества
курс
##ением
слегка
##аннои
##отно
##сил
беречь
попу
профессии
работои
учитель
##лючи
##рабатывает
##шаи
летают
лук
любовница
молодость
населения
подождать
покажет
##g
##вляет
##льность
##ралась
зима
каждое
окно
похожа
прошел
слезы
узнаю
##дных
##рил
##стали
##ульт
##шных
живот
звезды
посуду
черные
##жь
##тях
неужели
нужное
отвечает
русском
уснуть
человечество
##овыми
##рода
##ственное
варианты
германии
дому
захочешь
канеш
проявление
ухаживать
##вляюсь
##дцать
##ень
##сие
большеи
женского
привык
##елая
##иц
##лагает
##новление
##урои
забывать
очереди
пространство
связано
##дишь
##рность
##стят
квартира
нежели
общего
соседеи
##енного
дед
дураков
погоды
получше
философия
##лам
##пад
##тности
жалею
комплименты
образования
##жок
##илось
впечатление
настоящим
отсутствия
поимешь
##енки
##никам
##оги
##паешь
##чаться
##яне
бываю
захочется
##ящее
деятельности
диагноз
мож
шахматы
##бивают
##мин
грибы
деиствие
обиды
приходи
##верх
заодно
основа
отличии
поимет
полу
собирать
##ино
##ическую
##ование
спорта
сторон
##алы
##нца
##стья
идешь
наиди
питания
подари
##крывают
##лено
##нькии
##тельных
##уем
##чивается
одних
становлюсь
##очно
летнии
партнер
построить
сладких
ушла
##шло
беременность
данных
думаете
пообщаться
хорош
##лон
##новения
##рование
##рования
обращаться
отказаться
природу
продукт
родителями
сперва
##хнуть
боишься
вышел
комплимент
обувь
целью
##крывает
##лями
больших
вероятность
пригласить
скажут
собеседника
создания
сравнивать
уверены
##зма
высшее
сообщение
четко
##енои
##тс
варить
взгляды
жопа
портить
следить
##лят
##щал
компе
начнется
разным
редкость
##дию
##ельство
##кер
##нд
##низу
##щами
живи
объект
сравнению
##анию
ревности
сестра
##пс
##фик
##цеи
встречаются
роднои
чувством
##видит
##дили
##иально
доверия
защита
перестанет
плакать
прекрасная
##жится
##личные
##тнои
исключение
причинам
##евои
##ливаи
##почки
берет
мужского
ник
поздравляю
представить
уверенности
##вода
##елых
##зации
##нта
##учения
смена
ходу
##бно
##зах
##лке
##становки
депрессия
ищите
##раю
##таю
##уна
воде
женскои
обычная
хранить
##енит
бабки
двумя
концов
начните
тишина
##рею
##шала
постель
родные
тараканы
##лика
##лится
##ываются
блядьпиши
идите
нашу
привлекает
##еем
##лизм
единственная
ля
мелочи
страшнее
атеист
блюдо
вначале
набор
форму
##r
##кла
##тву
второго
##сыпать
##тое
##яние
армия
банально
любовник
обращать
плохих
улицу
##кция
##мм
вспоминаю
канал
ложусь
приводит
родственники
##ляции
##хах
##читал
дочери
логично
ходит
##анты
##хранения
агент
легкии
надеяться
нервов
отличаются
плевать
устала
##матологу
##рную
##тает
##ценки
##чила
##щему
##щество
срочно
ежедневно
польза
появляются
сделаите
христиане
##иныи
##ук
https
вторых
евреев
животное
мило
мужские
##иция
##кает
молчу
понимании
##сток
##тие
горы
печально
победа
##оном
всякои
главная
начали
попытаться
сдавать
существо
христианство
##ива
##ресс
баб
выходнои
деньгах
сексуально
теории
##бель
##дачу
##знании
##ненно
##ология
лжи
нечем
поиск
почувствовать
танцы
##анныи
##ваясь
##нила
вернее
мода
поиму
ситуациях
удается
##бря
##жая
##нькие
##сет
англиискии
обе
последние
свободен
события
##атом
##ряет
духом
ка
ножки
пюре
украину
##бке
##лья
##рика
окна
привыкла
сзади
смогут
##альны
##давать
##ложения
##ляем
##становка
вере
казахстан
меняю
милыи
нахожу
понравиться
послать
сильным
##жнеи
##имость
##носит
алкоголя
добрая
лице
существование
шоб
##метить
##яла
заботиться
падает
половина
следовательно
##истом
пенсию
##ливаю
##скому
##сте
инет
паспорта
пивом
сомнения
##бление
##ивная
##ратор
##шаешь
лес
лишнии
лучшим
недоговариваешь
##ментов
##сои
##цо
##чились
закрыть
инструмент
##ждаются
##нес
продаются
свечи
телефоне
##алист
используют
поискать
появятся
ссоры
такова
чудеса
##енье
##со
купишь
простите
серьезных
гормоны
делаете
купите
месту
моложе
несмотря
реклама
##биться
##гаюсь
##гиеи
##держивает
##ир
##тором
заботу
извини
мастер
положено
проявляется
снятся
точка
##бности
##екции
##ряется
банке
остальным
##альнои
##ильник
##ождение
##шаться
горло
поидем
принимает
произошло
##рад
##рять
##тираю
##шна
##щаися
посидеть
##вшись
##еют
##ливает
ерунда
##лятор
##шо
мешать
##нать
##нскои
##пила
##стые
##ун
##уются
захожу
маски
создает
человечества
чтоли
языка
##чиваю
группа
снимаю
твоим
##бираюсь
##полнение
##рке
вкусные
мороженое
сказано
скромность
смс
суток
тишину
##оде
##одит
##раешь
##рают
незнаю
устроить
учит
##ело
##зои
##ирование
##пел
##рм
аккуратно
получают
ставлю
умными
##дила
##знал
##мость
##рата
##стику
##читала
беседу
богов
вновь
духовно
женат
нести
становиться
##гли
##диться
##его
##онов
красивым
политики
расслабиться
хи
##b
##вшая
##зна
##зываи
личном
психология
рэп
способна
старое
чистая
##нтов
##ткои
водкои
отпустить
просит
стимул
шею
##едать
##стям
мыслить
наблюдать
##ниться
##ражают
##стом
##чники
веду
вкусы
вобще
надежды
новому
солнца
убивать
##ливая
виски
увидел
хорошими
чистить
##ешаю
##зала
##ивает
##мена
##честву
##чивыи
##ьна
встречу
нефть
пришлось
##бирают
##идел
##ливость
лекарства
оказаться
проект
страдания
счастливые
##ват
##ждаю
##щаемся
избегать
каша
крепче
начинаешь
письма
ухожу
##по
##чатся
выходят
молодым
пользуются
психологически
языке
##x
##жению
##жены
верующих
христос
##роды
##чите
вкусное
макароны
плачу
поделать
правои
развода
свидания
формы
##берут
##держание
##лоть
##никах
быт
комплекс
меняет
неправда
подходят
рынке
твоему
шоу
##фи
глубоко
грехи
##бая
##бол
##жена
##живание
##знаю
##менит
всяком
диета
кефир
направлении
произоидет
рак
##ьбе
##яюсь
договор
подумаите
силах
центр
##ренняя
##тываю
##уися
##ываюсь
держу
имеете
космос
мужская
##бирается
##вие
##рого
армию
достижения
организме
подход
тяжелее
##дется
##лены
##нции
засыпаю
карта
создают
##ведения
##пками
##строиство
##части
атеизм
спи
##елые
##роз
##щаться
говно
думаи
классныи
попало
соли
четыре
##зит
##иш
комплексы
шашлык
##женное
##кладываю
##нишь
##ращение
##уда
гостеи
моде
помнишь
юмор
##дное
##жом
##несет
##писывать
##уток
##чено
попа
физическая
##овом
вкуса
восстановить
гуляю
женскии
заставляет
знак
пишешь
трудности
##бль
##руи
##чее
##чия
планирую
##вольно
##оре
горячии
подоити
учится
##гал
##тельная
##ченныи
вселенная
лучшего
познать
сделаешь
##бляться
##ненных
##ожки
##циональность
##чиваться
##ьнее
методом
ноут
пою
пробовать
стараются
##i
##ливается
##няюсь
##оке
##пам
баба
век
всякого
масла
правы
рыба
настоящеи
пельмени
фоне
##бые
##зные
##мон
##стрировать
официально
сильнои
##деваться
##что
категории
наиболее
расскажу
устал
##гнать
##жна
##зла
##зно
##лавно
занят
ислам
коммунизм
красивую
обстоятельств
отличная
панель
практике
психологии
##станет
доказывать
лечат
написала
см
фсе
##лого
##пь
##скажет
##тизм
классная
мальчики
рекомендую
решили
семьеи
##ведении
##как
##ьма
бабушка
билет
вставать
дорог
изучать
рождается
случится
союз
##еду
##ерные
##иальных
##оли
жил
нормального
##берет
##ливают
##сен
##сле
выкинуть
достичь
нынче
остался
проявить
##едешь
##живет
##росли
##фию
встретиться
делаите
истину
просят
уроки
##растет
встать
дамы
зарплаты
злои
походу
продолжение
существовать
характером
этими
##чном
бухать
значительно
культура
мужское
полезен
самую
##вится
##равление
##рывать
ревновать
собрать
##пускаю
##растить
##тельным
##шко
##щаитесь
казалось
музыкои
помимо
хвост
##лева
##лив
##носят
##рова
##ужу
начнем
симпатии
снится
##ему
##жного
##меняю
##сную
получает
рекламу
##вонит
##логу
##оо
##тал
##шится
##бывать
##гла
##жания
##итель
##рея
##чивают
##ящая
закончить
наказание
розовыи
русская
средств
теплые
чел
##ало
##аска
##деле
##ождения
##рена
болею
желает
романтика
##зон
##лез
##лечения
##личных
##уально
зеленые
питере
полагаю
правительство
расстоянии
хуиня
##лавные
##ори
активно
большего
минуты
отличное
положительные
предпочитают
сидя
стабильность
##вость
##ген
##прос
##раться
##щению
бег
двигатель
заключается
момента
посмотрю
##ету
##знет
##играть
##ото
заметно
показатель
сладкого
собственные
##c
##зя
##тры
делах
понравилась
рис
технологии
ценят
##пке
##рина
вида
духи
москвы
обоитись
поиграть
правил
##w
##гается
##лее
##ращается
делу
нежности
сильного
способов
##нин
##роваться
##тр
защищать
молока
языком
##ав
##лючить
большее
компания
ноутбук
отдаю
поехать
покажу
трогать
##вели
##етра
##садить
##чусь
времен
имея
простые
рады
собеседник
спроси
трусов
##ево
##жила
##зовать
##уу
##фу
боже
езжу
избежать
ключ
##ацию
##беру
##женныи
##як
богатым
влияют
воине
домашние
находятся
смело
улыбка
##арки
##бился
##сным
взгляда
код
молодых
пох
развивается
выражение
грубо
нада
пк
самооценка
##вращение
##ерии
##нны
важны
достоинство
забыли
молитва
мышление
пришли
старых
степень
##зывал
##ином
##отик
##сили
##чиваются
заказать
китаицы
называю
основнои
отдыха
победить
успеешь
##грузка
##ключаю
##лял
##рушение
##сится
##щина
бесит
вечныи
взрослых
двери
наидете
подругои
присутствует
успеть
успешно
цену
##женная
##инг
##мс
##очкои
##рошу
##тную
##щиеся
борюсь
заболевание
лимоном
налоги
питер
помогаю
программ
танцую
##нали
десять
женственность
органы
пр
пределах
приятных
пыль
речи
смог
собаку
умирать
##елым
выспаться
красить
мыло
##воню
##ельность
##мечаю
##молчать
##олога
##ступить
##тен
##хе
возвращаться
крепкии
общее
разговоры
##бках
##зка
##зку
##истка
внуки
дороге
жив
пугает
розовые
учатся
яицо
##зок
##илы
##лата
##сказывает
##тишь
вопросе
дарю
захочу
клуб
минуту
мышц
обмен
обязан
##ктивныи
##ленных
##ливы
##оп
##оту
##пых
##работать
волю
воровать
зрение
кашу
отношениями
разнои
##ванию
##лег
##ляли
##ованныи
##твенные
##тили
достоино
загс
поставь
##бная
##днои
##зали
бои
впервые
котлеты
лесу
нашли
обязанности
прогулки
такому
##атель
##ляешь
безопасности
взрослыи
видите
зуб
измену
молодая
науки
светлое
согласно
фотку
##альными
##апку
##мат
##сыпаться
##уха
врут
дааа
обычнои
постараться
чужое
##ляется
внешнии
компанию
предлагаю
рублеи
свадьба
эмоциями
##гаются
##тические
минус
некоторое
прелесть
уважением
химия
##анная
##дна
##ленность
##новления
##тии
##шиваю
злость
идее
ненависти
несомненно
слух
##енном
##усом
##шок
автомобиль
жди
живое
находят
пригодится
работал
спину
удочку
##авно
##аил
##зость
##пляет
##ухои
##шет
потери
привыкли
соль
ставят
творить
чаем
##ерие
##ипу
##ождает
##раем
##сс
##фт
джинсы
какому
нравлюсь
скачаи
смотрите
##аску
##ван
##сиеи
##смотреть
аве
кожу
крылья
луком
находиться
президента
столь
цене
шум
##гонять
##дение
##жками
##лату
##равления
##сах
##тельства
##тил
##щихся
жила
зависти
мышления
находить
спасет
спросите
фига
черты
читаи
##едет
##ену
##ество
##ушкои
world
видать
виноваты
погоду
торт
##бирает
##енько
##ставь
##уд
завидуют
комнате
##вами
##ственности
возле
вообщем
напрямую
поверить
правильныи
прощения
совпадают
##зда
##нили
##ращают
##стны
##тям
##фера
запрещено
получил
поступать
прощаю
разбираться
удача
##евая
##кцию
##ственных
боитесь
имхо
окружающие
подобрать
способом
##дела
##ельного
##зан
##ильно
##овка
##рот
##талась
научится
получаешь
сало
сварить
скинуть
сознания
способы
умер
хороша
##верь
##летку
##ромная
занять
расстаться
современные
товар
умирают
кошелек
одеть
плов
счас
##ваете
##зываю
##яснять
выходных
небольшои
поля
правды
прочие
саму
сексу
чувствуете
##вшего
##изации
##соте
##тение
##ухи
##шком
##звал
##кал
##кости
##лежит
##пишу
##чишься
##щики
временное
выбрала
выхожу
красное
мол
отсутствует
переживать
прием
прост
##бят
##вязаны
##елья
##ждается
##нина
##шему
входит
интересных
книжки
семеинои
сходите
шампанское
##влекать
##нос
##приятия
даж
крым
осталась
перестанут
##еев
##мить
интеллекта
лилия
ночам
океи
существа
##ировка
##лев
##менение
##ъ
ненавидеть
порядочность
##веи
##дняя
##кладывается
##латные
##телем
##ческом
hello
букет
испытывать
наидите
отвечу
подобных
##аза
##дность
##ерт
##иты
##тении
безумно
жару
изнутри
ничо
подумаю
привлечь
следствие
улыбаться
##бытие
##гиваю
##ппарат
##тался
большого
браком
девочек
идеальныи
кругом
лета
одеяло
родилась
святое
чувствуется
##ведут
##ращения
##рительно
##тон
ноль
скорости
чистыи
##все
##емыи
##оман
##рою
##сных
##читывать
##яны
верим
дама
заботы
признаться
тяжелыи
##дует
##нькая
##яния
неуверенность
обижать
особенного
попробую
теоретически
фразу
##иваться
##смотрел
##тание
##ченые
##шил
даче
дешево
долги
легкие
прикинь
пьет
сочувствую
чужого
##днеи
##зует
##менить
##равы
бывших
макс
нашим
президентом
тесто
черта
школа
языков
##ежныи
##ернои
##лое
##щались
заняты
меняют
определению
подать
свежии
темно
тяжелая
##зом
##ишки
##нимаю
##помни
##рабатывать
##ставлю
##учиться
##ьнеи
вылечить
ебать
жилье
здоровьем
интереса
поверьте
результате
тупые
хватило
##ведение
##изация
##ологу
##уите
внутреннего
мечту
переживаи
поступить
прекрасна
прекрасныи
услуги
##брать
##дд
##жется
##зят
##ляция
##ляя
довольна
игре
операции
пищи
экономика
##етка
##теть
влюблен
высокии
духовная
заимись
заметила
интересна
личная
телек
ушами
чужую
##звали
##ическом
##почку
##ставляешь
##ственного
##ух
бегаю
настоящих
нужные
страшная
чушь
##нимая
##рона
равнодушие
##ального
##езда
##жись
##полняет
##стану
##чаюсь
богатыи
золотои
кг
темноте
##вна
##вшим
##ельных
##образия
##оваться
##хии
##ющим
дальнеишем
знали
лучших
надежность
настрои
начиная
поняли
состав
соц
што
##атор
##биваю
##расти
##сал
банки
обычное
последнеи
посоветовать
сука
украинцы
##чности
##шишь
##шным
##щности
выполнять
герои
живые
приобрести
сидишь
сталин
храм
##ворения
##если
##нду
##пускают
##ушку
врага
дерево
позволяю
попроси
пошло
скинь
старои
теория
требуют
чеснок
##гая
##жнему
##писаться
завидую
ловить
рука
фаил
##одишь
##щины
контакты
личного
пьешь
хер
хозяин
##гкая
##езть
верои
записи
интересным
многом
настоящем
поидешь
половину
соидет
старого
##ааа
##ерия
##нисты
богатые
жизненныи
одежде
попы
соглашусь
содержать
ти
##латы
##лах
##леить
##леток
##ованные
##потреблять
##рав
инициативу
истины
наедине
помогло
рога
##вут
##лье
##пные
##ряю
##ционально
виды
виновата
комфорт
письмо
приятным
удачно
##анием
##етр
автоматически
веселее
возможен
вуз
играл
научишься
поцеловать
проходят
успокаивает
##ерно
##иза
##ратится
##рике
##сныи
##спитать
важное
взаимность
даите
нихуя
нормальнои
отвлечься
оценить
партии
паспорте
поддерживаю
поиске
помните
пускают
свидании
##апки
##бым
##сывают
##твенныи
оу
подушку
попить
соблюдать
##зрение
##ковыи
бывшеи
века
жара
меню
миф
пищу
поддержка
сезон
##зывает
##зывают
##чувствие
видом
живых
потомучто
рабочии
сеть
скучаю
чая
##альное
##ильныи
##крыть
##нями
##ращаю
##тывают
жизненные
капли
комплексов
обоим
простое
##анов
##зным
##иками
##порно
##шиваться
вечная
применять
страдает
холод
##рафия
##уса
диалог
дрова
идеале
измениться
изменяют
необязательно
обратитесь
паре
течении
функции
##дам
##меры
##сут
##тник
влюбленности
красавица
музеи
надеть
пишите
поработать
##ельности
##шите
##ятки
бесконечно
ленин
метод
никакая
счастливо
штаны
##жник
##ктивы
##эт
аифон
держаться
модели
моря
ненавидят
непонятно
обсуждать
осознать
потеря
туалете
тщательно
##годы
##орит
вниманием
внимательно
приложение
событии
усилия
##веренности
##елок
##ельнои
##лядишь
##рыва
##стра
##ыть
доктор
мест
##ашка
##ванием
##ключать
##раемся
##спать
##тую
движения
начальник
хреново
##ган
##жаите
##иство
##ледовать
##ренние
##фере
##хои
думаем
инструкции
плохим
страхи
техники
##вишь
##идется
##мане
##ркои
##щиися
##юме
близкого
детскии
знакомы
знакомыи
##деления
##кономить
##ленное
##правка
##служить
##таж
##ьку
##ящего
богатых
защиты
называет
сесть
скину
течение
учеба
##девать
##дних
##сматривать
##ходит
вопреки
доллар
домашних
доход
массу
подругу
приходилось
растения
стену
##ивное
##иг
##кусить
##ладко
##ох
##роде
болезнеи
больнои
взяли
картошка
когото
поделиться
полезное
реагировать
сладкии
смотрится
##иная
##крытые
##нятия
##равки
##ранять
##растут
##учи
интересуют
перестает
полного
риск
родине
ух
ушеи
яблоки
##ведет
##иальные
##инку
##пустил
##сознания
баню
тупои
хватало
##ваитесь
##лк
##рмлю
##тическии
##чках
национальности
поет
считаете
##нзии
##рически
##ставили
книжку
мечтают
основная
синии
физическои
##одным
##пку
##роны
##рс
##ссе
близкими
божии
депрессии
питаться
позволит
православие
привлекают
придут
слабее
##атуру
##вах
##веряю
##лан
##нись
##уку
##ьности
бабушки
зиму
красные
молиться
направление
остальном
пользуется
поют
пуск
тренироваться
хохлы
якобы
##билась
##вис
##знают
##рте
аккаунт
ахахахах
всякая
делиться
желать
мысленно
супруга
танец
туалет
ярко
##мом
##нешься
##писки
##ходы
анализ
вирусы
жен
легких
лечиться
маленькую
обучение
ограничения
ожидание
оооо
последнего
удалять
##жечь
##житься
##лад
##ленная
##ляжу
##ромные
##становку
##ступает
##шенные
возбуждает
дождя
кольцо
позволяют
помешает
проверять
теплое
##дование
##иальная
##мут
##нивать
##рести
##стыи
##уны
блины
подарю
почки
рисую
святои
скрыть
страдают
усилии
черная
##верки
##влекаться
##латит
##сила
##тивно
##хода
##щали
волнует
греха
калории
качеств
очереднои
полезнее
собственных
солью
уважают
устраивать
центре
яркие
##дин
##еме
##крывается
##лагать
##лал
##няла
##почка
##рацию
##таешь
будучи
веб
вкусу
встрече
дала
зал
кошку
нажми
побеждает
позитив
самолет
##аете
##дина
##жимость
##пнуть
##рится
##сколько
##снуть
вызывают
детях
духовке
кататься
наушники
разнообразие
саита
сиди
фотографии
##аду
##атр
##весить
##гаешь
##дах
##екта
##помнил
##понимания
##реют
##ставят
##таи
##чатки
##юр
деревне
команда
лицом
негатив
окружение
ресторан
спартак
##левать
##нцами
##орец
##роется
велосипед
верующии
мировои
надежнее
нравилось
своиственно
старается
целях
чистого
##вляют
##воде
##даже
##помню
##рузить
##сло
##ставила
ангелы
гос
доказательства
контроль
меры
проблемами
пропадает
##аб
##нала
##рушает
##торы
##ума
жалость
женятся
задача
крепко
негативно
ощущаю
третьего
##равляет
бассеин
замечать
краи
новыми
родила
страницу
##h
##вернуть
##др
##дством
##жеские
##личие
##нимается
##праведливости
##так
админ
ввести
дмитрии
дружбе
дыхание
заболевания
климат
налево
превращается
рождение
сложныи
телу
углу
##авать
##жутся
##ровали
##сон
берегу
быдло
границ
держит
заметил
покупаи
практики
проснуться
рынок
толком
узи
##ао
##зана
##мые
##нцу
##рении
##сок
##ящих
белое
выглядят
мусор
нагрузки
народов
обязательств
поддержки
преодолеть
ребята
справку
##бляет
##днии
##лага
##нете
##нимаем
##опы
##раися
европа
писала
понедельник
попадаются
тьфу
учитывая
##енек
##зкая
##мотр
##сного
##тится
##шся
возможны
жир
молодого
переходит
помыть
процесса
своиства
созданы
учись
##бежать
##еньких
##жарить
##ладать
##нских
##редить
##шими
##ыграть
вечнои
ждите
кругу
нравишься
отключить
серии
удовлетворение
##держивать
##желание
##лючается
##навливать
##нимаи
##стаешь
##шиваюсь
анализы
выключить
ответил
размера
стремится
##бак
##года
##дая
##днего
##ечь
##ляите
##равить
##ственник
##тических
##шали
вставить
полезные
половои
сериалы
строго
техника
храню
##алисты
##аха
##бается
##гут
##казано
##приз
##ращает
##таюсь
внутреннее
выучить
группу
недолго
плавать
поверишь
проценты
существования
##дство
##емого
##поминает
##рак
##циональная
##чания
##чением
говорим
команды
многого
мороз
ногу
пища
подруге
путешествовать
разочарование
результаты
собственное
считаи
##блю
##бую
##вера
##знала
##менении
##нови
##пают
##ступают
##тного
##трои
злые
классику
минет
называются
пила
планете
планеты
полтора
почистить
семеиные
счету
##ален
##лед
##ован
аромат
буквально
закону
наркотики
обижаюсь
офисе
сказка
стань
тренировки
фамилию
##v
##дель
##менили
##тавит
бутылку
высокая
определенно
пипец
слову
##вного
##град
##дны
##ивнои
##рации
деньгам
женщинах
именем
максимально
определенные
помидоры
приходиться
рождении
собственности
##апы
##вил
##дею
##иями
##ногу
##опе
##ошки
##тию
##тых
заботои
кремом
любящии
начнешь
падать
расстояние
сломать
тест
##вец
##латныи
##ливым
##лох
##ндии
##пас
##разы
##стая
##цах
дерьмо
ожидания
отказ
победы
самооценку
спрашивают
счастливыми
чеи
##бляются
##доров
##ешать
##ждаюсь
##илие
##итор
##ическим
##лион
##мки
братья
можна
наслаждаюсь
тишине
узнавать
успеха
##ame
##алуюсь
##вкои
##гали
##нер
##нимался
##патию
##раска
##рник
##ряются
взамен
зашел
идем
надоест
наидут
пожарить
постараитесь
силиконовые
сложная
смогла
умения
чужая
##била
##лияние
##лкои
##одная
##орю
##ращивать
бензин
ес
подумал
почтовыи
приведет
своиство
спиртом
##дывает
##курить
##мене
##работка
##ушке
##хами
##ычным
атеистов
белая
вреда
выхода
здоровые
иисуса
капитализм
лыжи
определиться
почта
появился
прошла
работала
разумом
сексуальность
улыбкои
яд
##бою
##гры
##думывать
##кинуть
##ложении
##налы
##рада
##рессию
##ходить
веществ
кусок
маионез
научилась
неинтересно
последствии
приезжаи
эмо
##бовать
##ладеть
##нское
##пов
##честь
##щества
водить
гадость
змеи
напряжение
сильных
##дины
##зает
##лами
##нув
##пается
##роля
##хия
близости
включать
воздухе
духе
игнорировать
лицу
парк
предела
признать
простого
сначало
уехать
устаю
частью
##бляюсь
##ватить
##жливо
##крыты
##летка
##мни
##равитесь
##сса
бедные
крест
настоящую
определенных
получаются
признаки
целую
##болтать
##даем
##имать
##ображение
##ока
##омы
##пела
##прашиваю
##рны
##ываи
втором
выбираешь
выжить
добрее
мозгами
пил
похудеть
проявляет
свободным
ценю
##ателеи
##вела
##влекает
##вязываться
задуматься
иисус
интересам
налог
научат
нормальным
препараты
##было
##гивает
##елыми
##енности
##знается
##надо
##низм
##ною
##рается
вк
даром
любитель
материальное
нормы
общается
спокоинее
##арку
##вшии
##жалеть
##станешь
##шенная
больные
верь
встречается
выяснить
дачу
зарядку
здоровым
магия
открыто
половинку
русским
свободно
смириться
чистые
##an
##еб
##ечен
##ишка
##кло
##лива
##осы
##циях
аа
америка
испортить
неплохои
планшет
поеду
ручки
тараканов
уме
##вешь
##гие
##елки
##ешают
##каз
##мыть
##ничаю
##печь
##прет
##рела
##рути
##яти
вдохновение
едои
лол
милые
независимость
отвечают
притягивает
скуки
##говорить
##казывать
##ованы
##править
##стров
##тянет
ангел
банка
какаято
любимыми
настроении
потратить
специальности
##ден
##еваю
##еле
##жатся
##знательно
##оити
##ологии
##рели
##ряться
##становке
##тком
блондинки
высокие
звать
кинуть
мылом
надоедает
наслаждение
нахожусь
нууу
оружия
отсутствии
приятнеи
##нто
##скает
##числять
ест
китае
стадии
сущность
##нутыи
##отов
##равился
аппетита
гугл
дарит
дядя
знакомая
компромисс
монет
мыслях
пиццу
поидут
покупают
стены
фаилы
чтение
шутки
##деваю
##езут
##имают
##остью
##падают
##стен
воити
ежели
исключением
лишнего
начинаются
ощущать
светит
службу
ходил
##ари
##влечь
##дению
##имные
##итая
##ловнои
##рабли
##уну
газа
делить
определяет
показываю
появилась
слабо
##днем
##зуется
##реди
##сылку
##утко
вопросу
живы
исходя
лежа
ломать
оставь
пидоров
приключения
реакции
##бования
##вчик
##вят
##итация
##ице
##лод
##лужил
##мство
##полнять
##пременно
##риум
##рядка
##ченная
господь
дураком
женится
мини
подключить
подобные
процент
сахаром
создали
счастьем
##деление
##ерное
##зор
##просы
##щался
боги
германия
даннои
духовное
сильное
умничка
чужим
##еные
##лости
##нимаешь
##ратно
##ровал
##хахаха
##чтения
ванну
витаминов
истинная
поп
придумал
слушают
холодныи
##ама
##гладить
##даите
##дную
##крутить
##лины
##равляют
##юта
жесть
культуры
мазь
нежные
нифига
номера
постараюсь
свыше
черт
##son
##зера
##лючено
##ратуры
##руите
бабло
бюджет
вредная
зависеть
знаки
испытывает
любовницу
мужикам
мыши
обеспечить
подругами
приятная
создание
соответствовать
тепла
трусах
##ада
##атика
##вия
##ественныи
##ладится
##ладше
##меняи
##овные
##ряют
##тет
аппетит
воспаление
европы
прочитать
свадьбу
холоднои
##бище
##гласия
##илизации
##отка
##туре
##шению
##шин
браузер
восприятие
обида
познания
старую
физические
шкаф
##елаешь
##ества
##жер
##жнего
##иан
##инать
##меру
##права
##сски
##удои
билеты
изредка
оргазма
придает
##едают
##езжать
##зел
##ктор
##лавным
##нулись
##око
##рывает
##сто
##тав
##тенки
##ушек
##щиков
израиль
сплошнои
чегото
##ечна
##ктиве
##мии
##обия
##овныи
##полнения
##равляю
##устои
##хом
готовит
грусть
демократии
лучшем
набрать
нато
обнять
пар
подарков
##вало
##енную
##жны
##инь
##ково
##крыт
##лавнои
##тру
антивирус
голубои
недостатков
обеда
обещаю
соседа
фильмов
##ез
##мит
##мок
##стрыи
##тельное
блюда
воспринимать
зарабатываю
зп
отдам
сексуальная
справедливость
тама
творог
фраза
ходила
##гче
##дачи
##еися
##еите
##епт
##живем
##истки
##пасение
##репить
##рности
##рушить
##стырь
договориться
захотелось
любя
металл
напротив
научился
нескольких
плавание
приносят
религию
##етесь
##жество
##инги
##иска
##лаю
##ликов
##ненного
##призы
##рани
##сос
##яем
бросил
вредные
выбрал
высоты
заложено
корни
коты
лечения
покоя
портит
реакцию
салоне
участие
функция
##баться
##гресс
##иология
##порю
##пределение
##рушать
##сли
##судить
##тягивать
##чивые
вышло
личных
неизвестно
ппц
приложения
собираю
страшное
творчество
##ара
##дра
##еление
##лию
##лушает
##мешь
##окс
##ошь
##пеи
##пею
##прашивает
##раскои
##рие
##рма
##юби
##ющая
##явление
красивыми
навыки
недостаточно
ногах
подожди
продуктов
раю
сосуды
теме
##едро
##жимаешь
##лиять
##ненная
##нскую
##ожи
##ппе
##равлюсь
##чание
##явиться
душевнои
интереснеи
область
отличные
пальцы
передается
полезны
препарат
психологи
родина
салон
фигура
##даст
##жье
##тельство
##терии
##явились
ищешь
колеса
краски
любовницеи
неожиданно
разрешение
сбываются
трусики
##бавь
##варить
##жден
##лям
##пало
##роют
##рцы
гены
даа
ела
изменяет
любовницы
немало
оператора
пришло
противоположного
самолюбие
флирт
##алом
##бивает
##вершать
##вке
##нен
##ничныи
##нутые
##рень
##теты
##учу
блядь
врядли
выбираем
детские
добавляю
комедии
личную
перец
рабы
##ипов
##ировки
##ичные
##нском
##пешить
##ребования
##рованные
##сознание
##убу
##ьтесь
##язывать
боися
голосовать
дорогое
завидовать
зад
крутои
пожить
прекратить
##бираешься
##еловать
##леть
##меняет
##мер
##нутрь
tovbotn
гарантии
желанием
закат
камень
капец
назовут
огромныи
осени
ошибаюсь
плод
пожрать
ревнует
стою
увлечения
##ажется
##вии
##делано
##зиции
##лаг
##ляла
##отые
##раву
##рном
##сказываю
##сняюсь
##страция
##учит
##щныи
##ьник
гормонов
диплом
доброту
красотои
настроить
нахер
огромное
ответила
партнером
показаться
теплои
тянуть
##бедить
##ботал
##отики
##работки
##ращаюсь
##реда
##роен
##тизма
##чты
##щаешь
дочка
жарить
жесткии
задавать
заходи
моими
мужеи
обладает
пароля
рамки
родов
ходи
эгоисты
##гивают
##елять
##енькое
##зни
##очу
##пкие
##рава
##ставаться
##стное
##щественно
компьютера
общаются
определенныи
осторожно
ответов
показываи
прошли
традиции
##ворот
##дитель
##идем
##ключении
##кому
##лушаи
##нга
##овке
##орите
##сишь
##спользоваться
##стань
##суждать
##ующем
##ходим
##четание
взяла
встречал
гладить
забудешь
законов
мужья
начинаи
полезным
прибыль
проснулся
разного
сексуальное
теплее
уважает
ярче
##!
##,
##-
##.
##:
##;
##?
##f
##j
##q
##z
